ff
fe
ff
ff
00
00
ff
fd
fd
00
ff
ff
fe
fe
fe
00
fe
00
ff
01
01
fe
fd
fe
00
00
ff
00
ff
00
00
ff
00
ff
ff
ff
00
fe
ff
00
00
ff
00
fe
01
01
ff
00
fe
00
00
fe
fe
ff
ff
00
ff
fe
fe
fe
ff
ff
fd
ff
fd
ff
00
ff
fe
ff
ff
ff
fe
fe
ff
00
fe
ff
ff
ff
fe
fe
fd
ff
fe
fe
fe
fe
fe
ff
ff
ff
ff
fe
00
ff
00
fe
00
00
fe
03
05
02
ff
00
04
05
05
01
01
01
01
03
00
01
01
ff
01
00
01
01
01
01
01
ff
ff
fe
00
00
fd
ff
fd
fe
00
fd
fe
fb
fe
fe
fd
fd
fe
fc
01
ff
ff
fe
01
00
00
01
00
00
01
00
01
ff
fe
01
ff
02
01
ff
ff
fe
00
00
fe
01
01
ff
ff
02
00
00
01
00
00
ff
ff
01
00
ff
01
ff
02
01
00
ff
ff
ff
03
ff
01
00
00
00
01
ff
00
fe
fd
fe
01
fe
fd
fc
fd
02
ff
fd
fc
fd
00
00
fc
fb
fe
01
00
00
ff
01
03
00
01
00
ff
ff
00
02
03
01
00
02
04
05
06
02
01
05
09
02
00
01
02
ff
00
01
ff
00
01
01
ff
ff
01
03
02
ff
01
03
01
02
01
01
02
03
02
ff
ff
ff
01
fe
01
00
ff
01
ff
ff
01
02
04
02
00
02
03
04
03
00
00
00
03
01
00
ff
00
00
fe
01
ff
00
00
ff
ff
ff
02
01
00
fe
00
02
00
00
fe
00
00
02
00
fe
00
ff
01
fe
ff
ff
00
01
ff
fe
00
03
02
00
ff
01
03
04
01
ff
ff
03
02
00
ff
ff
00
02
fe
fe
01
01
fe
02
01
01
ff
fb
00
01
00
fc
f4
ff
00
00
01
fa
00
02
01
00
01
02
01
02
fb
00
01
00
fb
03
fe
00
01
fd
08
05
fd
00
00
fe
fe
00
01
00
00
00
01
00
01
fd
00
00
00
fb
04
ff
ff
00
fe
0a
06
fe
00
ff
00
ff
00
00
00
00
00
01
ff
01
fd
ff
00
00
fc
02
fe
ff
00
fe
08
05
fd
00
ff
fe
fe
00
00
01
00
00
01
00
ff
00
00
ff
ff
00
01
01
01
00
00
01
00
00
01
ff
00
00
ff
00
ff
01
01
ff
ff
ff
03
01
00
00
04
fb
00
02
00
01
fc
fc
02
00
00
01
01
00
00
00
00
00
ff
01
02
00
fd
fe
ff
00
fa
f9
fd
fc
01
fc
fc
fe
fd
ff
fd
fc
fc
fe
02
00
fe
fe
00
00
ff
ff
fe
00
ff
fd
fd
01
fe
01
ff
00
01
ff
00
00
00
00
ff
ff
00
00
00
fd
00
01
03
02
02
01
00
01
07
03
01
02
05
08
05
02
03
05
06
04
00
01
03
03
00
02
ff
ff
00
00
00
00
01
00
ff
00
fe
fe
ff
ff
00
00
ff
00
00
02
00
00
01
ff
01
04
02
fe
00
01
03
fc
fe
00
ff
ff
fe
02
00
00
01
01
00
00
00
ff
00
00
00
00
02
04
ff
fe
02
05
06
05
fe
02
04
02
08
fe
02
04
08
06
fd
00
02
07
ff
ff
ff
01
02
fe
ff
01
04
04
03
fc
03
02
01
05
00
00
03
08
06
fd
ff
00
05
fc
ff
ff
ff
ff
fe
02
00
01
02
00
ff
01
00
01
02
00
00
00
06
02
fe
00
fe
01
fd
02
01
01
00
ff
00
00
00
00
ff
00
ff
00
00
00
01
fe
ff
ff
00
00
00
00
fe
ff
ff
00
ff
ff
01
01
01
ff
02
ff
00
ff
01
05
00
00
01
00
05
01
ff
01
00
ff
ff
ff
00
00
fd
02
00
01
ff
02
fe
02
00
fd
01
fc
03
01
00
fb
03
00
00
01
02
00
ff
00
ff
fc
01
00
00
fe
00
fd
02
ff
fd
01
fc
02
00
ff
fa
00
00
ff
00
02
01
00
00
fe
fd
01
ff
00
fe
02
fe
01
ff
fc
02
fd
01
00
ff
fc
01
ff
01
01
02
01
00
01
fe
fe
ff
01
00
fd
fd
fe
01
ff
fd
fd
fd
00
00
fd
fd
fd
00
01
01
ff
ff
02
ff
02
03
00
ff
00
03
07
02
ff
00
04
0a
05
fe
ff
01
06
ff
ff
00
ff
fe
ff
01
fe
fe
04
01
ff
fe
06
04
03
00
fe
08
05
07
00
ff
00
0d
02
fe
ff
ff
fb
fe
00
ff
fe
03
00
00
fd
04
03
03
ff
fd
06
02
05
ff
00
ff
0c
02
fe
00
ff
fb
fd
00
01
ff
02
00
00
ff
01
00
02
ff
ff
03
00
02
00
ff
fe
08
ff
ff
01
00
fd
ff
01
01
00
ff
00
01
00
00
00
ff
01
00
ff
00
00
00
00
00
01
00
00
00
00
01
00
ff
01
00
01
01
00
01
fe
ff
ff
00
01
fe
02
fe
00
00
01
fe
fe
01
00
00
ff
00
00
00
00
0e
00
00
00
01
ef
01
00
00
00
ff
00
00
ff
00
ff
00
00
00
00
ff
00
00
01
01
0f
00
01
00
00
ef
01
ff
00
01
01
01
00
00
01
ff
01
00
ff
00
01
01
ff
00
ff
0c
ff
00
00
01
f3
02
00
00
00
00
00
00
00
00
ff
00
00
00
00
ff
00
00
01
01
00
01
00
ff
00
ff
01
00
00
ff
01
00
00
01
01
ff
00
ff
00
00
00
01
00
00
00
03
00
00
00
01
ec
00
00
00
00
00
ff
00
00
ff
01
00
00
00
00
00
00
00
02
02
02
00
01
01
01
03
01
01
01
02
01
01
02
02
01
00
01
02
01
02
01
00
01
01
03
03
01
00
02
01
02
01
01
02
03
02
01
00
02
01
02
ff
00
01
02
01
ff
00
00
01
03
00
ff
02
01
03
01
ff
01
03
04
01
fe
01
01
02
ff
00
fe
ff
ff
00
ff
ff
fe
fd
fe
01
fe
fd
fe
fe
00
ff
fc
fe
fe
ff
fe
fe
fd
fd
01
00
fe
fe
ff
02
fe
05
04
00
ff
03
06
04
01
00
04
04
02
01
00
02
03
03
02
00
fe
01
03
ff
ff
02
04
02
03
ff
06
05
07
04
02
06
08
05
05
01
04
03
07
05
ff
00
02
02
00
fd
02
00
ff
00
01
00
00
00
ff
02
01
03
01
ff
01
00
ff
01
01
01
01
01
01
01
01
fe
fc
fa
fe
03
fa
f7
f8
f9
02
f9
fa
fa
fa
ff
fc
f9
fb
fb
00
ff
ff
00
ff
02
ff
ff
00
01
ff
ff
fe
00
00
00
00
fe
00
00
01
ff
00
01
00
00
01
01
01
02
00
01
02
00
00
01
01
02
ff
fd
00
01
03
ff
fe
ff
00
01
ff
ff
01
00
ff
ff
00
00
01
02
05
05
01
05
02
fe
04
06
05
02
fe
01
05
04
02
01
02
02
00
01
04
02
02
ff
01
04
04
fe
03
04
fd
04
05
05
02
fc
02
05
02
03
03
03
03
00
01
03
02
00
ff
02
04
04
fe
02
05
01
05
03
02
04
00
04
03
02
05
05
05
02
ff
01
04
00
00
00
ff
ff
01
00
00
00
fe
00
00
01
ff
ff
ff
ff
00
ff
fe
00
01
01
01
00
01
01
00
01
00
00
fe
00
02
02
02
00
00
03
01
02
00
00
02
01
00
00
01
ff
00
ff
01
00
01
00
01
ff
01
ff
fe
00
01
00
00
ff
01
01
01
00
ff
01
00
00
00
01
01
ff
00
01
00
01
00
01
fe
fe
ff
01
ff
00
ff
ff
00
00
fe
fe
00
00
01
00
ff
00
00
00
ff
00
fe
00
fe
fe
fd
fe
fe
fe
fe
fd
fc
ff
ff
fe
fc
fd
fe
00
fe
fe
fe
01
00
ff
fe
ff
00
fe
fd
fd
fd
00
ff
fe
fd
fc
ff
ff
fc
fd
fc
fe
fe
ff
fe
fe
ff
01
00
00
00
01
01
03
05
03
01
02
05
05
05
00
01
04
05
04
01
01
02
01
01
00
ff
00
02
01
00
00
02
02
02
01
01
02
02
02
02
00
01
02
02
00
00
00
00
00
01
ff
01
02
01
00
ff
02
03
03
00
02
03
01
02
02
01
03
04
02
00
00
00
00
ff
00
fe
ff
02
ff
00
ff
03
02
01
00
01
03
02
03
00
ff
01
02
00
fe
ff
00
ff
00
00
ff
00
fe
ff
00
ff
fe
ff
ff
ff
ff
ff
ff
fe
00
ff
ff
ff
ff
01
01
ff
00
ff
00
ff
ff
01
fe
01
00
01
03
02
00
01
05
02
02
00
ff
03
03
00
00
00
ff
ff
00
01
00
03
fe
02
00
01
fe
00
ff
00
01
02
ff
01
00
01
01
01
ff
00
00
01
fd
01
00
ff
02
fb
00
00
00
fc
fd
fb
fe
ff
00
fb
fe
fe
ff
00
00
fe
00
ff
01
fe
ff
00
01
03
fc
ff
01
01
ff
02
ff
01
02
01
ff
00
00
01
03
02
00
01
ff
02
fe
00
00
02
01
fe
ff
00
00
fe
fb
fd
00
00
ff
fc
fe
01
01
00
fd
fd
00
03
02
00
00
03
00
fd
01
02
00
ff
fd
0c
04
00
ff
fe
08
02
00
00
fe
02
ff
ff
01
ff
01
ff
00
fe
fe
fe
fd
fd
ff
fe
fc
00
fd
fe
fc
fb
fe
fe
ff
fe
fb
fe
ff
fe
fe
01
00
fc
04
06
05
04
04
05
06
06
07
03
05
06
06
06
05
06
07
03
07
05
02
05
06
04
01
fe
fe
fd
fd
ff
fe
fc
fc
fc
fe
fd
fc
fc
fc
fe
fe
fe
fb
fd
fe
fe
fd
ff
fd
fe
00
01
00
00
ff
01
00
00
00
00
00
00
ff
00
00
ff
01
00
ff
00
01
01
ff
ff
00
00
00
02
00
ff
01
ff
02
01
ff
ff
fd
02
02
00
00
ff
00
01
00
01
00
ff
ff
00
01
00
ff
ff
ff
01
ff
ff
00
ff
00
00
02
00
ff
00
00
02
01
00
01
fe
fe
01
fe
01
01
00
ff
ff
01
00
01
01
00
00
00
ff
ff
00
00
01
01
ff
01
01
00
00
02
00
ff
00
01
01
01
ff
00
02
ff
01
fe
01
03
ff
00
fe
01
ff
ff
01
01
00
00
01
00
ff
03
04
01
00
ff
04
04
03
01
fe
01
04
01
00
fe
01
02
ff
fe
fc
01
ff
ff
fe
01
fe
00
01
01
00
fe
fa
fe
00
01
00
fb
00
ff
00
03
fe
fd
01
00
00
01
00
00
01
03
05
04
01
03
06
07
06
03
02
07
08
07
02
01
04
08
05
01
00
00
00
01
ff
00
00
00
00
00
00
ff
ff
ff
ff
fe
00
00
00
ff
00
00
00
00
ff
01
ff
fe
01
00
ff
fc
fc
fc
ff
fe
fb
fa
fa
fe
fc
fc
fb
fa
fe
fe
fb
fc
fb
ff
02
00
fc
ff
02
00
01
00
00
ff
00
00
00
00
00
ff
00
01
fe
00
ff
01
00
ff
00
ff
ff
ff
00
ff
00
00
00
01
ff
00
01
00
01
01
01
01
00
00
00
01
00
fe
01
01
00
00
02
00
ff
00
ff
00
01
00
00
ff
00
ff
00
ff
fd
fe
00
00
00
ff
ff
01
00
01
00
01
01
00
ff
fd
fe
ff
01
ff
fc
fe
00
fe
00
fc
fd
00
ff
fe
fe
fe
ff
ff
ff
ff
00
ff
00
00
fd
fe
ff
01
fe
fe
ff
ff
fe
00
fe
00
01
00
ff
00
01
01
00
ff
fe
ff
00
00
fe
fd
fe
fe
00
ff
fd
fd
fe
00
fe
fd
fd
ff
00
fe
fd
fd
fe
ff
ff
fe
00
01
00
00
05
04
fe
00
04
05
03
ff
ff
03
07
05
ff
01
02
05
03
fe
ff
01
00
01
fe
01
fe
fd
fb
fb
00
fc
fa
f8
f9
fc
fa
fa
f9
f9
fb
fb
f8
f8
f8
fc
ff
fc
fa
fc
ff
00
02
02
01
02
02
03
02
01
01
00
01
02
02
01
02
00
01
ff
01
00
02
00
01
02
00
02
04
01
00
04
06
05
06
03
03
05
05
06
04
04
05
06
06
03
00
04
03
04
02
00
01
01
01
00
ff
00
00
ff
00
01
ff
01
01
ff
ff
ff
ff
ff
00
00
ff
00
01
01
00
00
ff
00
00
00
01
00
00
00
00
00
00
00
00
01
01
03
02
ff
00
00
00
ff
00
01
01
00
00
01
01
00
fe
ff
03
00
00
fd
ff
01
00
fe
00
00
00
00
01
ff
01
01
00
00
ff
01
00
00
fd
fc
fd
00
00
fe
fb
fe
01
00
fd
fe
ff
ff
00
00
00
ff
01
00
00
ff
00
ff
00
ff
fc
fd
01
01
fe
fc
ff
01
01
ff
00
00
00
00
00
ff
ff
01
ff
00
01
01
ff
00
02
01
00
00
00
03
01
01
00
01
02
02
02
01
fe
00
02
01
fe
01
00
ff
00
02
01
fd
fc
fd
ff
00
fc
fd
00
01
00
fe
fd
ff
00
00
00
ff
ff
00
00
00
01
00
ff
01
01
04
01
01
ff
ff
03
01
01
01
fd
fe
01
00
01
00
01
00
00
00
fe
00
ff
ff
00
fd
02
ff
00
fd
fd
02
ff
00
ff
fc
fe
ff
ff
01
fe
ff
ff
01
00
ff
03
03
00
01
fe
04
00
02
fe
ff
01
01
01
01
fe
00
01
00
00
01
00
00
00
ff
01
00
fd
ff
00
02
ff
00
ff
ff
04
01
00
00
ff
03
01
ff
ff
fe
02
00
fe
ff
00
02
03
03
01
04
fa
06
05
01
01
f8
f6
02
00
01
fe
ff
01
00
00
ff
00
00
00
fe
ff
fd
ff
00
00
fd
ff
02
02
fd
ff
ff
fe
ff
fd
fc
f8
fc
00
02
fb
fc
01
00
ff
fe
fd
00
ff
ff
fe
fc
00
01
fd
00
01
fc
01
fc
fc
f9
fb
00
02
fa
fb
01
01
fe
fc
fe
00
00
ff
ff
fe
ff
00
fe
02
02
fe
ff
fe
fd
fb
fb
fe
02
fa
fb
00
00
01
01
00
00
00
ff
00
01
01
ff
ff
00
00
01
ff
00
00
ff
00
ff
01
ff
00
00
00
02
00
01
02
01
02
00
ff
fe
ff
01
00
01
ff
00
01
02
00
ff
ff
00
ff
00
01
00
ff
fc
fc
fc
ff
fd
ff
ff
fd
fc
fc
fd
ff
fc
fd
fb
fb
fb
fc
fc
ff
fb
fe
fb
ff
ff
00
ff
ff
00
01
02
01
01
ff
00
01
01
ff
ff
ff
ff
01
02
ff
00
ff
01
00
00
02
03
04
04
01
04
06
06
05
02
03
06
06
06
03
03
06
06
06
03
02
03
06
02
01
00
ff
ff
fe
00
00
fd
fd
00
00
ff
fe
fe
fe
ff
00
fe
ff
00
01
00
00
ff
01
01
ff
02
03
00
ff
02
05
04
03
ff
01
02
03
02
ff
00
03
02
ff
ff
ff
00
ff
fe
01
ff
00
ff
fe
00
00
ff
01
ff
00
ff
00
ff
00
00
fe
00
02
00
01
ff
ff
00
00
00
ff
00
00
ff
01
00
ff
01
00
00
fe
01
00
01
ff
ff
00
03
00
00
00
00
00
fe
ff
fe
fe
ff
ff
ff
ff
ff
01
00
00
fe
01
01
02
00
ff
01
01
00
00
fe
fe
00
ff
fe
ff
ff
fd
fc
fe
fe
fe
fe
fe
ff
fe
fe
fe
fd
fe
fd
fe
fd
fe
fe
ff
fe
fe
fd
fe
00
01
02
03
00
03
02
02
04
01
01
03
00
03
fe
00
01
01
00
ff
ff
02
08
04
ff
fe
fe
fd
fe
00
fb
fa
fa
f9
ff
fe
00
03
02
fe
fd
02
04
f9
00
fd
ff
f9
00
ff
01
fe
00
ff
01
fd
fd
ff
fc
02
ff
01
04
03
00
fe
03
04
fa
02
00
01
fc
03
00
01
ff
01
00
01
ff
fe
01
fd
00
00
01
02
03
fe
00
02
02
fa
01
03
02
fc
04
03
fd
ff
00
fd
fe
fb
fe
fd
fe
fe
fc
fd
fe
fe
fe
fb
fd
fc
fc
fd
fb
fc
fd
fc
fd
04
03
04
02
03
05
07
0c
03
00
06
02
00
05
fe
03
04
04
fd
fd
01
ff
02
fd
ff
ff
00
ff
00
00
01
02
fb
02
00
01
ff
f6
02
fe
ff
ff
03
00
01
00
00
fe
00
01
ff
01
01
00
fe
01
04
fc
02
00
01
02
f5
03
fe
00
00
06
ff
00
01
00
00
00
01
01
02
00
ff
01
01
04
fd
01
ff
01
02
f4
01
fe
01
02
04
ff
00
00
00
00
ff
01
fe
ff
ff
fc
fc
ff
00
01
ff
00
00
02
02
fe
ff
fe
ff
00
fd
fd
ff
00
01
fe
ff
ff
03
07
ff
ff
03
01
ff
06
01
02
04
f3
07
00
ff
05
0d
02
fe
01
fc
ff
fb
02
00
fe
00
01
01
05
f8
fe
01
01
02
00
fe
00
01
02
fe
01
ff
00
fe
ff
fe
00
00
02
ff
ff
00
00
02
f7
fc
fd
00
fe
00
fd
ff
00
01
00
01
00
00
01
01
00
00
00
02
ff
ff
01
01
01
f5
fd
ff
01
fc
ff
fa
ff
00
01
02
ff
00
00
ff
ff
ff
00
00
04
03
04
02
01
04
03
04
03
02
04
05
05
03
02
02
03
02
02
ff
00
01
01
00
fd
03
fd
fb
01
ff
f9
e2
f5
00
ff
f6
ff
f3
ff
ff
00
00
f7
00
01
ff
fd
00
02
00
fe
01
ff
ff
00
00
00
00
04
02
00
00
ff
00
ff
01
00
ff
fd
00
ff
ff
01
ff
00
00
03
01
00
00
00
00
fd
03
ff
01
fe
01
00
00
01
01
00
00
01
00
00
01
00
00
00
00
ff
00
00
ff
00
fe
03
ff
00
ff
00
fe
00
00
00
01
00
00
ff
02
01
00
00
00
00
ff
ff
fe
00
fe
fe
fe
fe
ff
ff
ff
fe
fe
fe
ff
fe
fd
ff
ff
00
ff
ff
ff
03
01
04
02
00
01
fd
fa
fe
fe
01
f9
f9
00
ff
01
01
02
02
ff
02
01
01
01
02
01
ff
01
00
01
00
00
02
02
01
ff
02
01
02
00
ff
01
02
ff
00
00
00
01
00
01
00
fe
00
00
00
00
00
03
00
ff
fe
03
01
01
00
ff
01
03
00
00
00
fe
ff
ff
00
01
ff
00
ff
01
ff
01
03
00
ff
ff
02
01
01
ff
ff
01
03
00
ff
01
fe
fe
fe
00
ff
fe
ff
ff
01
00
fd
fd
fd
ff
fe
fd
fd
fd
fe
00
fe
fd
fe
fe
ff
fe
ff
ff
00
01
ff
ff
01
01
00
02
08
fc
00
fe
06
0c
00
ff
ff
04
10
fb
ff
01
fe
fb
00
02
02
ff
ff
00
00
00
fe
04
fa
ff
00
fd
05
fb
ff
01
fe
fb
ff
01
00
02
00
03
ff
01
ff
ff
00
00
01
ff
07
fb
ff
00
ff
0a
fc
ff
02
01
fb
ff
02
00
02
00
02
fd
ff
fe
01
00
00
01
00
0a
fd
03
00
02
0d
fd
01
00
ff
fc
ff
01
fe
ff
ff
01
fe
fd
fe
ff
fd
ff
ff
fe
00
ff
ff
ff
00
00
00
ff
00
00
00
00
ff
00
ff
00
ff
01
fe
fd
03
fb
ff
01
01
0a
fb
00
01
05
0f
fc
01
fe
fc
ff
fc
fe
01
ff
00
ff
01
01
00
ff
ff
00
ff
fe
ff
fe
00
00
ff
fe
00
ff
00
ff
ff
fe
ff
ff
00
01
ff
01
00
ff
00
ff
01
ff
fe
00
00
ff
01
ff
ff
02
ff
00
00
ff
fe
00
01
00
00
ff
01
01
01
00
00
00
01
fe
01
ff
ff
00
ff
00
01
00
01
00
00
ff
00
00
00
00
00
00
00
ff
ff
00
ff
ff
ff
fd
fe
ff
fe
ff
fe
fe
ff
00
fe
fe
fe
ff
01
00
fe
ff
00
02
fd
fc
fe
00
fe
f8
0c
fd
ff
01
fe
20
03
01
ff
fc
fc
f8
00
01
00
fe
00
01
00
ff
fe
00
01
00
00
05
ff
01
00
ff
fe
ff
00
ff
01
01
00
01
00
00
00
00
00
00
00
fd
00
ff
00
01
04
ff
00
00
00
fd
00
00
01
01
00
ff
00
00
00
00
00
00
01
00
fb
02
00
00
02
01
01
01
00
01
00
00
00
00
ff
01
00
00
00
01
00
00
00
01
03
03
03
02
ff
fe
ff
fd
ff
fd
fd
fd
fd
fe
00
01
00
01
00
00
ff
00
ff
00
01
01
d4
02
ff
01
f9
d1
fa
02
00
01
11
00
00
01
01
02
ff
01
00
02
02
00
00
01
ff
01
01
00
00
00
01
01
01
01
01
02
02
00
01
00
01
ff
ff
01
02
01
02
00
01
00
02
02
00
01
ff
02
01
02
01
02
01
01
01
02
01
01
00
01
01
00
01
02
01
00
01
01
01
00
01
00
01
01
00
01
01
02
01
00
03
00
01
00
00
01
01
00
01
00
fc
fc
fc
fd
fe
fc
fd
fc
fd
fe
fd
fc
fd
fd
fe
fc
fd
fd
fe
ff
fd
fe
fe
fe
fe
fe
05
04
02
00
04
02
04
0a
02
07
01
01
06
01
04
08
05
04
01
00
03
05
01
00
ff
fe
fe
fe
fc
01
00
02
00
00
fe
00
ff
02
00
ff
ff
ff
00
fc
fe
00
ff
fd
ff
00
ff
ff
02
fe
fe
00
ff
00
01
ff
02
00
01
00
01
ff
00
03
ff
ff
ff
00
00
00
03
01
02
03
03
fe
ff
fd
fc
03
ff
01
fe
ff
01
03
00
01
03
02
02
00
00
02
03
ff
ff
fd
fd
ff
fe
fe
fe
fd
fe
fe
fe
ff
fd
ff
ff
ff
fe
fe
ff
00
ff
ff
fe
00
ff
01
01
fd
ff
02
08
08
00
00
00
08
07
ff
00
ff
02
ff
ff
00
00
02
00
02
01
01
00
ff
01
00
01
ff
ff
01
00
00
00
ff
ff
ff
00
01
01
00
ff
00
00
00
00
01
ff
01
01
00
ff
00
02
00
01
00
ff
01
00
ff
ff
00
00
01
01
00
00
01
ff
00
ff
00
00
01
ff
00
ff
02
01
03
00
00
00
00
01
00
00
02
02
03
ff
00
01
ff
00
01
fe
fc
fc
fd
fe
fc
fd
fc
fc
fd
fd
fc
fc
fc
fc
fc
fb
fc
fb
fd
ff
fe
fc
fd
fe
01
01
02
ff
01
ff
07
0a
09
00
01
07
08
08
01
00
06
07
03
02
02
01
ff
ff
01
00
01
ff
ff
00
ff
fe
ff
00
01
00
03
02
02
00
fe
fe
fe
00
ff
00
00
00
ff
01
ff
01
00
00
01
ff
ff
ff
ff
00
00
04
04
02
01
ff
00
01
00
00
02
01
00
00
01
fe
00
ff
ff
00
fe
00
01
00
00
01
05
06
06
02
fe
00
02
03
00
00
00
01
01
00
ff
01
01
01
01
00
02
01
00
01
01
02
02
01
01
01
02
01
01
01
00
01
02
02
01
00
ff
fd
00
00
02
06
05
02
00
02
ff
fc
03
03
00
00
06
04
ff
01
01
00
01
fe
00
01
02
00
ff
ff
01
00
00
ff
02
ff
00
ff
ff
02
01
01
00
ff
00
00
ff
ff
01
00
01
00
ff
01
01
01
00
00
00
02
00
00
ff
01
00
00
02
02
ff
00
00
01
ff
00
00
ff
00
ff
ff
00
02
00
00
ff
01
01
00
01
00
01
02
00
01
ff
00
01
00
ff
01
01
00
ff
00
ff
00
fe
fe
fe
fe
00
fe
fe
fe
fe
00
fe
fd
ff
ff
00
ff
ff
00
00
01
fe
ff
00
fe
fe
ff
07
00
ff
ff
05
0b
07
00
00
04
01
ff
ff
ff
00
ff
fe
00
ff
02
fe
02
01
00
f9
02
fd
00
ff
fe
fe
01
01
00
fd
00
03
00
00
00
03
ff
fe
fe
00
fb
00
fe
ff
f9
03
fc
00
00
fd
fe
01
00
ff
fb
ff
02
ff
01
00
02
ff
01
ff
01
fc
ff
00
01
fc
06
fc
ff
ff
fe
00
ff
01
fe
fb
fe
01
ff
01
01
01
ff
01
00
fd
fe
fd
fe
00
fd
ff
fe
fe
00
fc
ff
fd
fe
01
fe
ff
fe
00
00
fd
00
fe
00
03
fe
fd
01
01
00
06
15
fe
04
00
05
07
03
fe
00
01
06
08
fe
01
01
fc
fb
ff
01
00
00
01
00
ff
01
ff
ff
01
01
ff
01
00
00
ff
ff
00
01
00
01
ff
01
ff
01
fe
00
fe
ff
00
ff
01
ff
00
00
01
02
02
ff
00
fe
00
00
00
ff
ff
01
ff
ff
00
01
01
01
01
ff
00
01
01
01
ff
00
ff
00
00
ff
00
00
01
00
00
01
00
01
01
01
fe
00
ff
ff
ff
ff
00
01
ff
ff
ff
ff
00
01
00
ff
ff
01
00
ff
ff
00
ff
00
00
fe
ff
ff
ff
ff
01
01
00
02
00
00
06
10
01
fd
ff
02
01
fd
ff
fe
00
fd
ff
00
ff
03
01
f8
fd
02
04
fe
01
fb
01
04
fb
fe
fd
04
fe
03
ff
fd
00
04
01
fc
fe
03
04
03
00
02
02
02
00
07
01
00
01
f9
ff
00
06
00
03
01
00
03
04
02
ff
01
fd
01
04
02
05
fe
01
02
0b
05
fa
fc
f7
02
01
fe
f9
00
01
00
fc
fd
fd
fe
00
fe
ff
ff
fc
fe
ff
00
ff
fc
fe
ff
fe
ff
fd
ff
fd
fe
fd
fb
fd
ff
fe
fe
fd
ff
02
02
0b
04
01
08
05
01
0c
08
02
09
04
0b
04
03
06
0f
04
02
02
fe
03
02
02
fd
ff
ff
ff
ff
01
01
03
01
00
00
02
03
02
01
ff
ff
00
fe
00
ff
00
00
00
00
00
01
01
00
01
01
ff
ff
00
00
01
ff
01
ff
00
01
ff
00
00
01
00
02
00
01
00
01
00
00
00
00
ff
ff
00
ff
00
01
00
00
ff
ff
01
00
fe
ff
01
00
02
01
00
ff
00
ff
00
ff
00
ff
ff
ff
ff
01
ff
00
01
01
ff
00
00
ff
fe
00
ff
fe
00
00
01
fe
ff
02
00
ff
00
03
08
04
00
00
01
06
03
00
00
fd
ff
ff
ff
00
00
ff
00
01
01
01
ff
ff
fe
ff
ff
fd
ff
00
00
ff
fd
ff
00
fe
fe
fc
ff
00
02
01
00
00
ff
00
00
00
fe
ff
ff
00
fd
fd
fe
01
00
ff
00
ff
fe
01
fc
00
fe
ff
ff
ff
fd
00
fe
fe
fe
ff
00
fe
ff
fe
ff
fd
00
ff
00
00
ff
ff
00
fd
01
00
00
fe
ff
ff
00
fc
fe
fb
fd
fe
fc
fe
fc
fc
fe
fd
fd
fc
fd
ff
fd
fd
fb
fc
fe
fd
fc
fc
fd
fe
00
05
02
00
03
00
05
0a
09
02
03
03
03
08
02
02
08
03
04
02
00
03
02
03
03
01
00
00
01
02
01
00
01
ff
00
00
ff
fe
fe
00
01
00
00
00
01
01
00
ff
ff
02
01
00
00
00
00
ff
01
00
00
00
00
00
ff
00
01
00
ff
00
00
00
00
00
ff
ff
01
ff
00
00
ff
ff
00
00
01
01
ff
00
00
02
00
ff
00
00
02
01
ff
ff
00
00
00
ff
ff
00
00
ff
ff
00
fe
ff
00
fe
ff
fe
ff
ff
ff
ff
ff
ff
fe
00
ff
ff
00
ff
ff
00
ff
ff
01
ff
ff
02
02
04
00
00
03
06
07
00
ff
02
01
03
fe
ff
ff
ff
01
ff
00
01
ff
00
01
00
01
fb
00
ff
01
01
fd
01
00
00
00
ff
00
00
00
00
02
00
ff
01
02
fe
01
00
01
02
fc
01
01
00
02
fc
01
ff
00
02
ff
00
ff
00
ff
02
01
01
ff
00
fd
ff
ff
00
01
fb
fe
ff
01
00
fe
00
ff
00
02
ff
00
00
01
01
01
01
00
ff
ff
ff
fe
ff
fe
fe
fe
ff
ff
ff
ff
ff
ff
ff
ff
ff
ff
ff
fe
00
00
fe
ff
fe
00
02
06
03
01
04
00
07
03
01
01
f7
ff
fe
00
02
03
05
03
00
00
ff
01
00
00
01
ff
fe
00
01
fd
04
04
fc
03
02
fa
09
ff
01
05
ff
f8
00
01
fc
04
03
00
ff
01
fe
fd
00
02
fe
04
04
fd
01
02
f9
0a
ff
00
02
fe
f7
01
00
fd
03
03
01
00
01
ff
fd
fe
01
fe
04
08
fd
00
02
fb
0a
00
01
03
ff
fa
00
00
fd
03
03
00
00
00
00
ff
ff
00
00
02
00
ff
00
00
00
fe
fe
00
ff
01
ff
fe
ff
ff
02
00
fe
ff
00
02
00
ff
ff
00
fd
01
01
ff
03
f9
f6
06
01
fd
07
01
fe
ff
00
fb
fd
ff
01
00
00
ff
01
01
00
fe
fd
ff
00
ff
00
ff
fe
00
fe
ff
fe
ff
01
01
00
01
01
01
00
00
00
01
00
02
00
fe
00
01
00
00
fe
fe
00
00
01
ff
ff
00
01
00
01
00
02
02
ff
00
02
ff
00
ff
ff
ff
01
ff
00
01
fe
00
01
02
fe
00
00
01
ff
00
00
01
fe
fd
fe
fd
fe
fe
fe
fc
fd
fd
fe
fc
fc
fe
fd
fd
fc
fd
fe
fd
fd
fd
fc
fe
fe
ff
01
03
01
00
01
03
04
01
01
00
06
09
ff
01
ff
0a
0c
00
02
fe
fd
00
01
00
fe
fe
00
ff
00
00
04
03
02
ff
ff
01
01
ff
ff
00
02
ff
01
00
00
00
02
fe
01
00
ff
02
ff
ff
ff
00
02
01
ff
00
02
01
01
01
01
01
ff
02
ff
00
ff
01
ff
00
04
01
01
02
02
01
01
01
01
01
02
02
02
03
03
02
01
00
02
00
01
ff
01
00
00
fd
fe
fd
fd
fe
fd
ff
fe
fe
fe
fc
fe
fd
fc
fe
fc
fe
fc
fc
fe
fe
fd
fd
fe
00
00
02
01
00
fe
01
02
05
08
00
03
06
08
09
01
02
05
09
05
ff
ff
00
ff
fe
00
